3E60FDF1
3ECD72EC
3F70FAB2
BF38C061
BF468501
3E32F8A0
3EC56128
3EFA857D
3EF922AA
BEFF30D8
3CDCA9C2
BF300624
3F1A3BC1
3B973095
BFB10693
3FA265B0
3E496873
3F383BF1
BF93589F
3F184093
3ED0CAB5
BE70F869
3F05B10B
3CB1001A
BF43BB73
BBADC092
3F0714AB
3F60409B
3D9D71AB
BF3466B0
3E37F8DE
BF5675FA
3E300B17
3FEB0440
BF272841
3F9ECD76
3F17F7B7
3F72A440
BF22CCAB
BF379300
BEB3BD8B
BF710437
3E972F5E
BFB5F9B3
3E00DCA3
3F1ED5FE
BF57BF71
BF138691
3ED255A6
BF498149
3F90D03C
3D689F81
BD20FE76
3F8B5704
BF988909
3E5D2809
BF066216
3F5F3BF5
BED8B83B
3EDE5E24
3F6E8B04
3EF6897A
3F4D2BA4
3E6C2F78
3E928416
BF3E20AE
3E23DAC6
BF221602
BEFE304E
BEF2847A
3E012014
BE87A7CB
3D7CFA32
BE8635F1
3DE743CB
3EE7C6BC
BE4C91DF
3F804D41
3E8BE3E1
3FABFDD2
3F5EF044
3EE95A82
3D687A92
3E7D49B2
BECB107D
3F467797
BF87580E
3EF13CB9
BF072E6C
3E2A35EE
BE9C0601
BF50D51C
BE9B4B66
3E9C4EB6
3E90A625
3F66F807
3F0788FC
3E42367A
3F68A681
BF9B78C2
BD9B6713
BF83ECD6
BF1ADCD0
3EE03975
3E14E236
BF5444E2
BECF0164
3F6706E5
BF12EB54
BF60AD0E
3F0A78D6
BF3C29A9
3F32B6D4
BF73252C
3EAB8C18
BE9F029F
3F08C43F
3F49B0F6
BF9F493E
BF112793
BBB94B0C
BFF0FD65
BEE860B5
3F89382C
BDA9EED4
BE73290B
BF115FF1
3F2DCC9C
3E1C8353
3F8AAA3A
3F642DD5
BF9AE4D6
BE909756
BE9248D7
3F367F5D
3CDA5406
3FAD3BAA
BEDBDCE6
BECBE791
BE89796E
BE5518D0
BFBBC410
3FABF60E
BFC579FD
BFA44842
3D1AEB97
BF731C91
3F36E649
BE36E37D
BE8D564A
BE634FF2
3FC6025A
3F6F023B
BDBD2EBC
BF4FE808
BF1542DA
3F580FC1
3F15650C
3F89FBC3
3F99C548
BEEC9F85
BDC0797A
BF721505
3E537406
BF949CF4
BF0724FB
BF2E465A
3EF49C3A
BEE3CF1C
3E640335
3EACBD66
BF703E65
3F955A9A
3ED83021
BF14D7DB
BF641B3E
BF05C3BA
BECD2A7B
3E2EF513
3F2C0031
BF72A6DC
3EB8C464
BF45F6AD
BF214E28
3ECB610E
3FA14F33
3F06C7B1
BF8111C6
BE90689C
3EB6B059
3F092C57
3FA1510E
BFF9B145
BF28D178
BEF81DDC
BEC78B01
3D72C39C
BF47719B
BE01C6F7
3F255797
BF3B8426
BD92D7E5
3F53D225
3F66FC59
BF15A881
BDC5F431
BE038BCA
BF0D4A2E
3EB156F7
BF6D9CE5
3F94990D
BECD6461
BE69E4A9
BE3179AA
BE65CD07
BF479BE3
BFA6CC7A
BF5263E6
3F1E8F65
BEB04408
3F685439
BF2C3EEC
BF090CFD
BF1DF313
BE5A8B1D
3F9E2EF6
3EBCFB0D
BF1F2474
3F1CF834
3F056851
3C99557A
3F4E16F3
BEBFA4F6
3F0F96AB
BE5CC371
3F12DC37
3F263743
BF29E130
3F7E35F5
BD516884
BD4B37EA
3F900DBA
BF53E192
3EFA07AE
BF9C8F43
3F440155
3EBE3B29
3EF527D5
BE92B8EA
BF41A44E
BE91BF63
BF2187AF
3E0DB6F3
3F06E188
BD27CFFE
3F5547C7
BDF15E68
BF978240
BF86B17C
3D23EDFD
3F49102F
3F33D79F
BED5840A
BEACE866
3DF11E2A
3E97F2D8
3F2A11DE
3E905AF8
3EAFD337
3F39548E
BD7DFFEF
3F2FFE82
3EFAA060
3F29DED1
3E93058A
BF4BC75A
3EBEF079
BEF29E93
3E7DCF9C
3F8371B1
3EE75EF9
BF1774D0
BF3C4F17
BF474325
3F7CB74C
3BBA4824
BF519A7E
BE3C5716
BE4F03CA
BF0AE3E4
3F3B5F24
BE8409CC
3F6A7A36
BF91F827
3EBDE156
BA960199
3F0C8DCA
3EBFA364
BF8B5D38
BDCC99A1
BC9A613B
3E0929A1
BE81F165
BEC1318E
BEAEB7D2
3F6128E4
BEE3A96C
3F61A0DB
BF3075A0
3F6CA4D5
3F4AC1AA
3EFF64D6
BF685E70
3F862CC4
3F05F50B
3F6A4C33
3CBEB90E
3F2003DE
BEE0457D
3F74C6EA
3F5C3443
BF4A4492
BD80D243
3F825852
BF215CF2
BF29FC15
BE0F8813
3F7155EA
3F34AB6D
3E4A26AC
BE246C75
BEAC1E0D
BF41C7E3
3F004B35
3D8078BB
BE6D229A
3E25B166
3EEBBCBB
BE2F7758
3E9DCFE6
3EA96762
BED5CC97
BEA7403F
3F30EEDE
BEE24EEB
BF1CEB46
3F017D5B
3F2D09B6
BF52A044
BF659C99
3EA81987
3F6D6A4B
BF7D9DF7
BF4BBE3C
3F2D8A5B
BE5C0256
BE68011F
BEE70997
BF37058F
BF563868
3F1E0178
3DF82E47
BEA4B455
3F51A886
BF12FCE3
3F3A73F9
BEE8CB56
3F09BB35
3EB34B48
3E7F4FA7
BE72DBB6
BD7FC1AF
3F607468
3EA1DB85
BEAC756A
BF0A9DAD
3F4C0ED4
BF474575
3F66DC4F
BF482F78
BF4480E0
3DE8DF89
BF854B1B
BF3363A4
3F136C4C
3F49EA1F
3E4DC4F4
BF5A1057
BF3A877A
3F0852B4
BF256F24
3F7B350D
BE6C0301
3E29DF9D
3F5E2DF7
BC91E86D
BC08AFB2
BF327C1E
BEEB9EDD
BF8A0038
3F4C0F60
3E997E30
3E9A6F1E
3F0E74B9
BDD2EB45
3F5F7630
3F803E7D
BC37C9CD
BF99A3AF
3F634776
3D49FE69
BF25AA3A
3EABB837
3B95CE24
BDAD05AB
BEE65527
BEB8F2F3
BF58BD9A
3DE475B5
3DFAF2F0
3F55100A
3DF79216
3E596066
BF587804
BF0F39A0
BE842F27
3EB717D5
3ED2896F
3EAC1BA6
3F48CCC8
3F410D52
BE822BC8
3EF0A4ED
BE110A34
BF2FFF2F
BF205A08
BE98603F
BF146835
3D8A1798
BE4470A9
BF224991
3F6F079D
3E846C15
3F227D36
BE60D577
BED3CC4B
BF5EABF5
3F247D1C
BF8AFB56
3E2D86B0
BF00EA90
3F5A3EE6
BF03F76D
3F49D859
3F9D8392
BE8B776F
BEB2B99A
3E393E76
BF27C7FA
3F531299
BBD2702A
3FB6DB9A
BEA46789
BF8139E0
3E56AE7E
BE1DD702
BF47FFDD
3F0D72EC
3E937173
3E78099E
BF84D3C7
3E58BFF7
3D5D97B9
3F2144DD
BC824D78
BF2C01CB
3F4F0085
3E8E04C0
3F21EAEC
3F48CECB
BF651D8D
BF2F53A5
3F08630B
BE9B3AB8
BF35D149
3F04A1AE
3EED1580
BECE0BBE
BDE55A3F
BF45F4FA
BF673095
3FB1F71A
3F75B858
BE4E4BC2
BE60A158
BE9C8515
3F0F70DC
BF0C88BB
BF753044
BEA64F6F
3F3AB9EB
BE36EB45
BF5D2E6B
BDB8C1B3
BF9575E2
3E23ADCE
BE8E3555
3F6F4C0D
3F8D8BCB
BEEA4423
3FC28EE3
BF76478A
BDB99476
3F73ECEC
3EB734DF
BF13FE00
3EAA8BCC
BEA50641
3F265589
BF992029
3D9E9F18
3EF88C97
BF1D4D10
3C835501
BF0CF075
BF0D15B1
3EF8FEDC
3F5F5A12
BF09A5D9
3F197B63
BEEEB718
BF6AC8B9
BF8A8E8B
3E446D5E
BE47732A
BF3D4947
3F81088F
3F1E73B4
BF404902
3E00D468
BF978087
3F0A6D45
3F3F3B5B
BF38FAD7
3ED3DC63
BED41190
3EF46F92
BF2E0954
3F0A425E
BDD1A1BB
BD90F1AB
3EB4F3DC
BEB3E70F
BE837B9E
BF452479
BEBBD218
BD562730
BFA3A05B
BE2A3781
3F18B260
3DE2BB38
3F37D7AD
BFD167DA
3F09116C
3F999A7C
BE766DC6
BF870AC4
3F5BC2E8
3EAF9F7F
BF7A5288
3DA82A89
3ECACECD
BF623F2F
BD38C940
3F336395
3E188D1D
3E560A5B
3F0D9B7D
3FB801AD
BF8D91F4
BF116CD1
BEA0806B
BFB6F5F8
3F47FEED
3DD12CFB
BF3E6FBA
3F64CDE6
BFB0351A
BD2B8BF8
BEACC32B
3F3FF7B0
BF1B9FC7
3FF5EC18
3F7A84C6
BF07A1EC
3E6EE0C7
3D425615
BF280ADD
3F11C8B1
3F70FE63
BE7D40C7
BF2484ED
BF1C6197
BDB231DB
BF2B58C2
BEFC855A
BF28BF53
BF434A29
3F864B06
BF429BD9
BEE4AD4E
BF037786
BEB4AE49
BE4A20FF
3E049997
3F687061
3EB316D3
BEB8EE11
BF25428D
BED3B5E1
3F0A022F
BF57A2E0
3F037FD6
BE0BAB85
BF85A6A1
3F45AF9A
BE169DC5
3E436ED2
BF8F545F
BF353529
BDCF122B
3F0F3F0E
BE9E0271
3EA9A3C1
BF76AE92
3F27EDC6
BF008F3C
BEF9DF39
3F890079
BF945BEF
BED158B1
BEA6B9E6
BF4AB025
3E52829F
BD3FAEA8
3DDC5A4E
BD51905A
BE041DAC
3F8E88F2
3E98A0B1
3E3589CE
3E5B4690
3ED2D1E6
BE8ED76C
BF01E4F5
3E954706
BF35C9AE
3F72F673
BF09A39C
BF477993
BF236B82
3E3008EE
3E937170
3E365DA4
BE56C65A
3F3DCDF7
BF362CBF
BCB6B3D0
3F3CEE6B
BE8A9DE7
3E5C3D3F
BEE2068C
BEB6FAF9
3E4B5FAF
3F0EE0B3
3F3EB53B
BF82A1D9
BE8F5407
BF29FDEE
BF4D922F
3FA9C02B
3EE54B0C
3ED5DF85
3E948B3B
BF40F318
3FA67230
BF892F03
BF5232F0
3F82560F
BF0A8B53
BFB4E864
3EC13FA3
3EABBD4B
BE95978D
3AD19CDF
BF18D389
BF823678
BE3409D1
BEDA0F1D
3F5D8BC1
3F7CE9FC
BFADBEEE
BF56F98E
BF529E80
3EB2E28E
3F7A4B08
BD8F7475
3F0F4ACA
3E3A1085
BFB556A3
3F67CFFF
BF0AEBEB
BF52573F
3F1E48EE
3F1106E5
3D01D8FF
3F79161D
3F38E4CF
BF4BD195
3C3153CE
3EE5BFA9
BD8EC357
3E26D6EA
3E48E04F
3D49E5AA
3F085625
3F93698C
3E22721A
3F7CA1D3
BF84A74A
BE0F63E0
3F81B752
BF3DD9E3
3D803DA7
BD0B76C5
3F5F057C
BC1DFF7D
3F51235B
3F464F5F
3EC25A74
3F62892A
3EEE4861
BECEAD6A
BFA3527A
3D6E31BE
3F0DB43E
BF4417D3
BF6D8AF3
BEADFB65
3F45E618
3F5E8A59
3E171799
BF6A90DB
3F1CA953
3F5D449D
BED47930
BF13C674
3D15FAF7
3F3693DC
BF0FBDA9
3EE82936
3F9993AD
3F20FE7F
BF975E49
BDDF8430
BD83F03E
BF985338
3F6F77E3
BDC7C0AB
3E985A78
3F2AF7B9
BF801976
3E84EB36
3F031A8F
BF17A581
3F4FF8FF
3E999B4F
3E5FE9AB
BF7EAAF9
3EE8E58A
3DC04289
3F152BEA
BEC2198F
3E611041
BEC937E4
BF2D4A88
3F918000
3FADCAF6
BEE051FA
BF0ED881
3EF06769
3F7CC270
3F428CDD
BE515426
BEA78500
BFAAD112
BFFD65F4
3DCF991E
BEB6FBC8
BE0EBAAD
BF4D8EA7
3F55E3AC
BF0C4D1C
3F23BB0F
3EF3B1BE
3E4BFA7C
3EEE0A02
BFFE1F40
BDC1F9FA
BFA2C2FD
BEC15871
3F66C60B
3F61263B
BEC69F30
3F8EF1C7
BEF9C6F5
BE7A4EE8
3F35B6AC
BFC58E2C
3EB653F2
3F9668F1
3ED5ED82
BFAA5305
BEC92C14
3F9B0D16
3F095CD0
BE967B53
BF5C2038
BF43EE87
3F9ABD6E
3F2C4FFF
3E808963
BD44A2E9
BF7E2257
3E963862
BF8E8EDF
3EB6ECAF
3E06D591
BEE44471
3F7434B6
BAE69FAD
BE42D737
3F37A396
BE92BBBC
3F59A83C
BEB506F3
3E5BCCC0
3E8C4796
3E582657
3EF6674B
BF570E89
3DCCF593
3E3304FB
BF3261CA
BF76445A
3F717A37
3F1A4A5E
3DFD3C04
BE693DEC
3F76B25C
BF38D3CF
BF4BCAB1
3E8721A1
3CAF579A
BF6B6006
BEBD3AB4
3E387CCF
3F1323AC
3EE51F98
3F340E4D
3F01E219
BED15476
BF1BC929
3E308A5C
3E7EDBC3
BF333E23
3F4857D0
BECDB6B7
3EE1C1C4
BCD44268
BF7E95D7
3F3169A5
BF620EB4
3E66EFCE
3F86D2CF
BF94AD00
3EFF1E84
3EEBCD57
3E335E57
BFE84515
3F6AE5C5
3DF120CC
BF4DC92F
BE8BA85C
BF063910
BEDB3565
BC552228
3EF06B5B
3EBDC42C
BEAF0563
3EEAB5D0
3EA28BED
3EA4C15E
3F528660
BED07117
BF5DE71F
BF985E76
BF371B1D
3EC1E142
3F1B4B13
3E7A63A6
3E4A25EE
3EC71460
3E478D5A
BF01E984
3C3FBD56
3EFD66BA
3F2B46E4
BE01AC7F
BF085F5B
3F422F5E
3F628DBD
3F8FCEDB
3F5F7D11
BEFF2DBE
BEF28EBE
BF8879E4
3F4722D4
3F6C44FB
3F6039C7
BF2A4A33
3ECDDE87
3EC1E8E6
3EE72296
BA68E797
3F6C24A1
BF628177
3E3A26DD
3F5AA6AB
3EF06FB6
BEAAF2D1
BE06E700
BF00429D
BF0C9243
BF619B5E
BDAA4C4E
3F006EF3
3EC11CD1
BE90EB33
3F016290
3F5D3CEC
BF240DD2
3ECF60A7
3EC986B5
3F86686C
3F6595E9
3F73341B
3FA5FC51
3F132F52
3F799CCB
3F08EFAB
3F7C1EED
3D56BDE4
3E2449D2
3F3AAD19
BF634802
BF168331
3F027107
3D4E3E8B
BF26CE0D
BEAE7782
BF541977
3EAD5BD5
3ED9757F
BF6612BA
3F2DB630
BF206C84
3F1616CD
3DEC5CCB
3EEDCD47
3E064E1C
BEF6CE67
3F0B358A
BF236E06
BF9EF44C
3F3E2B8B
BF362203
BF4C8955
3CE77D71
3F63015D
BF5F65FF
BD4918D4
BD226A44
3E8AABA6
BF15C748
BE71F603
3F1C6498
BEB095BC
BD8DDB75
BF01D211
BF1F9B58
BFA3930A
3E4CFAA5
BF73A76A
3D4C2687
3F523BFF
BF44C5E6
BF59B8FA
BF36B6CC
3F636F60
3D028682
3F2FD55E
BE43AA48
BF4EC6BD
3F40D5F7
3E89BF9D
BF573F28
BF88F1FE
3F935778
3F9894D4
3F068E43
BE441412
3EE3CF64
3CAC53B7
3F8FEBEB
BDA96BFC
BF50EB05
3EE569B6
BFCD746F

BFBDC5F3
BFE77711
401F1BAF
C00542D4
3F9162BF
BE515C12
405E9052
BFBE3C32
BFFA3C76
3FFFDDF4
3FF79376
C03F970E
3F53E246
C00B2A0B
3F5A1CEE
BE991461
BF9E84FA
3CF9ABD9
3DC5BA7E
BF52BEC2
3DEFF560
BF179BB7
3B5D8D4B
BF5BDE73
3E9BCF34
3FF07567
3E273060
BF2E81B7
3F485B87
BF79B3F5
C0099929
3FA7A76A
BE17ED00
400173A7
C0207E13
BEE58799
BF017985
3FC5A0AD
BFB4CF6E
BF642676
3FD849A6
3EAB5609
3F65239C
C023A958
3F995FFC
BF8BE92F
3E15E929
3FA76CDC
BFC275A0
BFC6DA5A
407E6914
BF97A9F6
3EA79B21
BF4AEE4F
3F2AE3A9
3F07D591
C006C2BD
BFA55935
3FAA21B0
3F14712A
402C69ED
BFCFA4C8
BF3EA105

